34B004300C7FF4CFFC0008B00F6FFA6FF19FFE3
3D1FF90FE6201260120FF2DFF78008FFEEEFF88
38300270096FF16003E0035FE69FEDD00B3FF02
3BA0018FF0300EFFFBEFF3B005600F4FF79001B
0F9FF5FFFEFFFA6FF98FF4A0087FEAC013EFF58
0010003010DFEC0FF8F00C0001B01110127FFCB
2EB00A6FF61FF6FFF1000D8FED1013900B40106
042FF41000DFF19001700ECFEF000E6008AFF29
32BFFAFFFBDFF59FFD800E800B300E7FF22FF5D
0B400C6FF9FFFA5FF730014FFE9009A0057FFFA
3B500EDFFD1FFD7FF9FFEAF009FFF4400B600DF
126FF8E0113FF56FFA6FF45FFA00045010AFEDC
0D70087FF3FFFFE00D1FF2300960008FF02FFAB
3060062FF68007500AAFF78007CFECE000EFFED
121FFA4003E005DFF69FF8FFF05000CFF40000B
02CFEB50102FEB000B000D6FFE2FEABFFE9FFFE
0BFFFB200CD00E9FF60010E00F8001DFF540057
0DFFEC20077FF09FEFFFF39FEF100C8FF8100A9
339004F00D40017FECE0022FFB9005F010FFF40
3460127FF0EFFF40119FEEDFF7B0003FF9E0039
0E7FF97FFCDFF50FFA30003FEC400B3FF45FFDF
33CFF7A006DFFFDFFCFFFD0FF7CFF3BFFBDFF22
063FFD4FEA80067FF47FFF70077FF74FEFEFF98
2A0FF860096FF4A0111FFFCFF4A00F8010B0073
37FFFA900D2FFE1FF88FFC80041FECE00280144
10B00BAFEC6FF74007D0073FF9C004BFF98FF98
3FBFFA3FF5D00EEFFF6012EFEE4FEF1003400BE
09D003F0117FE99FF3100AD00CF0063FEFDFFAC
01A011F0096FF920042FEA4FF9E005DFEFDFFA8
3FE005CFF2D00B200CA0118008F0039FFF0FF55
02AFF420037FF26002CFF1CFFE80121FFDE00B3
0B5FF7500C8000500C6008E00DEFFA3FFEAFFE1
3BEFFAC00B200BCFF86FFBF0083FF43FF3300C3
3A70024FEFBFFC1009BFF8100E0FEE600CFFF0F
3C0011A009AFF8F0105FEF7FFFB008BFFAAFEDA
010FEEF00DA00FA0069011CFEBCFECDFF0C00B7
0C5004300B4005FFF9900FAFEE900E1FF6400A4
07C0016006FFFD6FEF3005CFEDFFF7A0043FFCC
2BBFF1400ACFEF4FEC40035011F011F0037FF5E
36EFF5700D2FEEEFF68FFED00A3FFFFFF2C009B
317FF93001E00F101170044FFF7FF32008AFF5D
3D1FF610031FF9AFEFDFFF000050145FF86FFC6
3EA008D0000007700A500A3FF010044FEF100C9
078FF550086FF7F01230017FFFC006FFEC40089
08DFF87011BFF13001BFF3B0045FF54FFDFFEEC
3840005FECAFEE900EB00FF0080006C0023FF21
35A002EFF68FF2300A1FFC60098FED400F3FFA0
3FCFFB5FEE8FEC2FF74FEB500A2FFDB004E0125
00DFF51FFD300A1FEC8FF47FEA1FF860001FFA9
037008C01240043001AFFA2FF20FEC9FFD4FFFE
13DFED9004DFEDA0111FF12FFD000490089010D
3330066FFC4011F00E1014B005DFEDBFF73FF98
0C20015FF4200730030011400DFFFCAFEF3001A
303006F0136008BFEE9FFDFFE9EFF95002B013D
3E800FDFF17FEFFFED2FFD2FF5EFFE4FEC800A9
115001FFF37FFDB000A00E7FFA7FF6DFF4FFECC
38000CB00F2FED0FF18FFECFF8E002E0012FFD5
0D40060FF09FF3D000AFF86FFBCFFF3003600A0
0B0013D001300B7FF16FFBF009EFFAF00A1002B
3850011FFB6012300400016FEC000AA0116006B
08DFFBAFFA0FF8800DE0124FFF8005D00EB0072
2F30115FF51FF80FF0B0079FF070040010AFEF1
2E6FEE6FFA80144FF930026FFF9FFF7007D007E
3EA004F002AFF00FF79FFEAFFE4FF46FFF2FF5F
